0011001101100000
1011011000111111
0011001011010111
1010001101111101
1011001101111110
1011001010111111
0010111001111110
0011000010011010
1010000011100110
0011000001000011
1010111100010110
1010010100001110
1010111011000111
1010110110010111
0011101000111011
1011011010010000
0011000011101010
0011000000010011
1011010110010000
1011100011001000
0010100100001101
0010010100001111
0010100010010110
0011100000101010
0011001110001110
1011010110111000
1011100010110101
0011010110001000
0010111100000010
1011010000100101
1011011011100010
1011000101001001
1011010010100101
1010111010000111
1010111101100011
1011000111110101
0011000100000011
0011010010111111
1010010111001000
1010110000100101
0011010011011010
0011000001000100
1011000000010011
1010110101101110
0010100101100101
0010111000010101
0011011101000100
1010111010101101
1011010111011100
0011000000100110
1011011011010001
0011011100101000
1010101100001011
0011100011010000
1011000010011100
1011100001010101
1011100001110111
1011010100011101
1011010100111100
0010110001100001
0010101100110001
1011001001000111
0011001100011011
0011010000111101
1011101001010001
0010110111001010
1011110011111001
0011100000111011
1010010011100111
1010011110110001
1011010011110011
0011001110101100
1011011001111111
1011011001101100
1010100101001110
0011001111100110
1011001010111010
1011010101110000
0011001001111010
0010101011110010
1011000000111111
0011011101010000
1011011010101101
1010011000101011
0011011100100101
0011010011110000
0011010000100111
0011000101011101
1010110111110101
0010100110001000
1011010101010010
0010111101000100
0011010000010010
0011011000111101
1011010001001110
1011100101001100
1011001101110101
0010110001000000
0011001100000010
0011000011101000
0011010000000101
1011100010110110
0011010000011110
1011000001001011
1011101111000000
1010111111100011
1011011001100011
0011001001110001
1010111111101101
0011001010111101
1010101101001000
1010000001000001
1011100110011010
1010010110111110
0011000011000011
0011000111011010
1010111101011010
1011011110101010
0010100011000101
0010111001100110
1011001100010001
0011010101111100
0010110110101001
1011000100101010
0010101101110011
1011010000111101
1010110011110101
1011000100011110
1010011111010000
1011010010111011
1011000001011001
1010110110010111
1011000011101110
1011010001011101
1011010111100011
0011100001100001
0011000100100110
0010011101101010
0011000100100110
1011011000100000
0011010101000100
1011101000100000
1010100100111010
0010001101100100
1011101000011000
0011000010000111
1011001100101000
0010110111001101
0011000010000110
0011010000010000
0011011000110111
1011010011010111
1011010011001000
1011100001111000
0011001100101001
0011100000111001
0011100001111101
1010110101111111
1011010010001100
1011100010111011
1011000011111110
0011001000010111
0011011010000100
0011010011101111
1011000100101010
1011011001101011
1011100100100100
0011010111011100
1011011110110100
1011100001110011
0010100011000011
0011001111101011
1011010001100110
1011011101001111
1010101001110100
0011010000010111
1001110111101100
0010110001001100
1011000010100101
1011011011001110
1011010111010010
0011100100111100
0011100000000110
0011001010100101
1010110100101111
1010110111000011
1011110001111101
0011011011001101
0011001010111011
1011011001001010
0010011110001100
1011010101100100
1011011101000011
1011010101100111
0011001100001111
0011010000101110
0011010010011101
1011011011000100
0011010110101110
0011001010100000
1011001011011100
0011001011011110
0011000000110001
0011000110111000
1011100100010100
1011000001100100
0011010000111000
0011010100101010
0011001101110000
1011011100110010
1011001101100110
0011011110110101
1011001000101001
1011001110010101
1010011110110111
1011100000100000
1011010111011110
0010110110110110
1011000111010110
0010110001011010
0010111011101100
1011010010110111
0011000011110011
0011000011000010
0011011011000011
1010010101101100
1011000100110010
1011010001100100
0010110011001101
0011001010101111
1011011111101101
1011001110011111
1011011111001010
0010000101010110
0011001101100001
0011000100010010
1011010000001000
1011100100001100
0011000011001010
0011001111010000
1010111011001010
0011010000111011
1001110111111111
1011001111101010
1010101111100101
1010101100101111
1011010001101000
1011000011100011
0010110100001100
0011011000011101
1010101010010100
1010110110010010
0011001001000010
0011001000100101
0011000111100000
1011011101010011
1011100011011010
0011100010110000
1011001000101010
1011011000110001
1011001000111001
1011001010111101
0011010101101111
0011010111010101
1011011110101000
0010110111100101
0011010101100001
0010110101111110
1011000111110001
1011001010010001
1011011100111101
1010110011100110
1011011000010110
0011100001110001
0011000111011011
1011000100111000
0011000010011111
1011001011110000
0011100101110110
0011010011111111
0010110011001001
0011010001011001
1001111111111111
1011010011010100
1011101001001111
0011100010011101
0011100000000101
0010111000010110
1011010100011010
1011000100010000
0011011010101100
1011101011110011
1011001101101011
1011010111111101
1011000001010001
1011011010001000
1010101001010111
0011010000100110
0010000100100000
1011000101101111
1011000110011101
1010111111110100
1011000010011001
1010000100010011
1011100011010000
0011010001000010
0011011011111010
1010110101011000
0010100100100111
1010001101001011
0010011100111101
0010111011110001
0010100101110110
0011000100101110
0011010000000010
1010101101111111
1011100101011100
0010110111111010
0011010000000000
1011001101100111
1011100110100000
0010110111010110
0011011100001100
1011000010000010
1011001100110111
1011010000101011
1011101001011000
0010111100001110
0010100110011110
1011100100111111
0011001110100010
0011000011100111
1010111011011000
1011100001000000
1010011000101101
0011010011011010
0011010110001010
1011001011011001
0011001110011010
1011000101001001
1011011100101011
0011011111100100
0010111000011000
0011011001101000
0011001000101001
0011010011001001
1011101101100110
1010111101101110
1011100000101111
1010101011000100
1010011011100101
1011000010100000
1010111011001011
1011010110011100
0011010100000100
1001011111000110
0011001101110000
1011001011101111
1011010010001001
0011010010110011
0011010001010000
1010010000111101
0011001011000011
1011001100001100
1010111111110100
1011000101000001
0011010100011101
0011010010110101
1011000000101100
0010000110010111
1011100000011000
0010101010111010
1001100011011100
1011100110011100
0011010000110111
0011000000100111
1010110001001110
1010111000101011
1011000011111100
0011001001010110
1011001100011101
1011101101100111
1011010110011111
1011000100000110
0010110001100111
1010100010100000
0010100111000100
0010110101111010
1010101010001001
0010001110011010
0010111100100010
1011001000011011
0010100110100110
0010100110110010
0010111110101101
1001110101010100
0010100111011001
0010101010111101
1011000100000011
0011001110011111
1010110011010101
0011100011101010
0011010101110000
1011001011001011
0011100000101111
1011011011110001
1011000110011110
0011011010111001
1011100011001101
0010111010110000
0010110011101111
1011010010010000
1010101011000110
0011001010011100
0011000011100111
1010111100011110
1010110111010010
1011010110001110
1011010000111110
0011011100011110
0010100100111110
1011010010111101
0010001110010010
0011000100001010
0010111010100011
1011000001111001
1010111100010001
1011000100001011
1010100110100110
1011010011000110
1010110100001010
0011011000110001
1010111111100111
0010110000100100
0011000010111001
1011010010000010
0001011011001110
1010111101000110
1010110000111111
1011011101010010
0011010110100100
1011011001111110
1011001110001001
0010110010001011
1011100100101101
0010100000110001
1010110011100110
0011000000111010
1010010011101000
1011010100000011
0010110100101101
1011110001111111
0011001100001110
1010111111011110
0011100011011111
1011100110000110
1010011101110111
0010110000100000
0010010000000100
0011100010100111
1011010100110100
1011010111101100
0011001101010100
0010101101110000
0011000001001011
0011001010010000
0010101000010011
0011100101011011
0010100001110001
1011011101111100
0011010000010100
0011001110001100
0011010000100101
1011100111000110
0011100010011001
1011100011100110
0011010001011011
0001101001111000
1011010011001110
0011010111110000
1011101011000001
0001111101110110
1011010100010011
0011010111001000
0011001010110101
0010101110101011
1011110100010101
0011001101000011
1011101000000001
0011011111111011
0011000010110000
0010101011001101
1011000011110110
1011010111001100
0011010000011110
1011011100100011
0011010001001100
1011001110100100
1011001101000110
1010110111010100
1010110010111110
0011100001011001
1011010111101100
0011010111011110
1011010010001010
0011010101100001
1011011101111100
1011010110101010
1011010110011100
1011000000110010
0011011001001100
1011010010100001
0011011101001101
0010010001111010
1011011100100000
1010101010110100
0011011001011010
1011101000111000
0011011000110011
1011010011100100
0010111001101101
0011011010000010
0011010111100100
0011010001010011
1011001100100000
0011011100110010
1011010110110110
1010110010110101
1011010011001101
1011011101111000
1011011101101100
0011000100101000
1011011011100000
0010110001101110
0011010000001101
0011000110100000
1011001111111111
0011011110011110
1010100011010111
0011001101111101
1010010110111001
1011011000000100
1011010110110100
1010101110101011
0011010101011000
1010101000100101
0011000101111001
1011010101001011
1010100100100111
0011011100010010
0011100011110000
1011001111001101
0011001100000010
1010100100000101
1011100110111001
0011001110101011
0011100100000010
1011100111010001
0011011000001010
1011011001100010
1011000101100011
0010110110011100
1011011100100000
1010110111101110
1011110001100001
0010110111100101
1010111111100101
0011001111100101
1010100000010011
0010111111011111
1011011101010000
1010110111101111
1011010110101001
0011011001110011
0010010110001111
0011010111101110
1010100010100110
1011010100100111
1010100011101001
1011000010011011
0010111000101011
1011001110100110
0001011011001000
1011000101010111
1011010100010101
1001100111111001
0011001011110100
1011010000001011
1001110101011100
1011010000001000
0011010000001111
0010100010110000
0010111011100010
1010111111001000
1011010001000010
1010111100000100
0011010100100000
1011000100101010
1010100110001001
1011010111100011
1011000010110000
1011011010101011
0011011111011100
0010110001101101
0011101111101011
1000110000100100
1011010001101000
1011100100011110
1011000101100001
0011010010011010
0010100110111000
1011011001101000
1011011000101101
0011010010010100
0010111101001010
0011010010000101
1010111001110000
0011010000100111
0010111111110100
1011000100001110
1011101001101101
0011100001010001
0011100011000011
1010110100000011
1011000011101111
1010110010110010
1011001011001101
1011100001011110
1010101000100111
1011011100110110
0011010001100110
0011000011110100
0011010001111100
1011001011000001
0010110000101100
1011001101000011
1011000101101110
1010100001111111
1011010100001100
0010111001111000
