00111110011011000000101011001000
10111110110001111110110111000100
00111110010110101110101110000111
10111100011011111010001100001000
10111110011011111100110111011100
10111110010101111101101011010000
00111101110011111100110011110010
00111110000100110011011001011000
10111100000111001100110010010111
00111110000010000101110100110100
10111101111000101011010001111110
10111100101000011011100101011110
10111101110110001101111111010101
10111101101100101101100101011100
00111111010001110101011000010011
10111110110100100000101011101000
00111110000111010011111011101000
00111110000000100101000010010101
10111110101100100000101000110101
10111111000110001111111111011110
00111101001000011001011000101010
00111100101000011110000011111111
00111101000100101011001011001100
00111111000001010011000101010010
00111110011100011100101010000101
10111110101101101111010110100110
10111111000101101010000011101000
00111110101100001111001001001110
00111101111000000100110101100101
10111110100001001010010000100111
10111110110111000011001111010011
10111110001010010001110001100101
10111110100101001001011101000011
10111101110100001110010100101101
10111101111011000110010010001100
10111110001111101010000101001111
00111110001000000101101010100000
00111110100101111110010101111010
10111100101110001111011100110111
10111101100001001001111001100001
00111110100110110011001001001000
00111110000010001000111000101100
10111110000000100110010111001010
10111101101011011011110011001001
00111101001011001001001011011101
00111101110000101001000011000011
00111110111010000111100010111010
10111101110101011001011110110010
10111110101110110111101100110110
00111110000001001100111110011111
10111110110110100001001110100100
00111110111001010000110000101100
10111101011000010101110100101000
00111111000110011111011001001111
10111110000100110111100110110001
10111111000010101010010111010101
10111111000011101110001100110110
10111110101000111001111100101001
10111110101001110111110100001000
00111101100011000001001001010000
00111101011001100010101110010011
10111110010010001110011011110001
00111110011000110101000100011001
00111110100001111010110000100101
10111111010010100010100011010111
00111101101110010011010011000100
10111111100111110001001011100000
00111111000001110101000011000101
10111100100111001101100101111000
10111100111101100010001111001011
10111110100111100101010110101100
00111110011101011000000111110011
10111110110011111101011010101011
10111110110011011000101000000101
10111101001010011100100000000110
00111110011111001011101001000000
10111110010101110100111110001001
10111110101011100000100001001011
00111110010011110100001110001111
00111101010111100011011000010011
10111110000001111110001111110111
00111110111010011111100000001110
10111110110101011010011100011011
10111100110001010110100001001001
00111110111001001001000100000010
00111110100111100000001111011000
00111110100001001110100000001101
00111110001010111010001011011110
10111101101111101010111101000000
00111101001100001111111001100111
10111110101010100011111111110011
00111101111010001000101010000000
00111110100000100011110001100010
00111110110001111010111011011011
10111110100010011011100101000101
10111111001010011000010101110110
10111110011011101010111011011011
00111101100001111111111110010010
00111110011000000100100001011100
00111110000111010000010111101100
00111110100000001001000001001011
10111111000101101011001110101000
00111110100000111011101101111111
10111110000010010110100101100110
10111111011101111111001110100110
10111101111111000110101110001111
10111110110011000101110111111010
00111110010011100010011010100000
10111101111111011010000101101110
00111110010101111010111001100001
10111101011010001111000111010011
10111100000010000010001111011111
10111111001100110100001111001111
10111100101101111100100000100110
00111110000110000110010101110010
00111110001110110100100001000011
10111101111010110011101011111011
10111110111101010011101011101110
00111101000110001001010000111111
00111101110011001100101010110100
10111110011000100010010111010001
00111110101011110111110001111001
00111101101101010010010110010001
10111110001001010100010101000000
00111101011011100101011101000010
10111110100001111010010101111011
10111101100111101010000000110101
10111110001000111100010010100100
10111100111110100000101101100111
10111110100101110110110100100100
10111110000010110010111010100011
10111101101100101110010010010101
10111110000111011100110111100100
10111110100010111010100010111101
10111110101111000101000010010011
00111111000011000001000011101110
00111110001001001011101110110000
00111100111011010100010100111011
00111110001001001100111011001000
10111110110000111111110101111100
00111110101010001000111100011010
10111111010001000000111000011011
10111101001001110100001101000101
00111100011011000111100100001101
10111111010000110000101001011000
00111110000100001101110110100010
10111110011001001111110100011110
00111101101110011010001101011001
00111110000100001100110110111001
00111110100000100000000101100101
00111110110001101101100011110000
10111110100110101101001001000011
10111110100110010000001111101110
10111111000011101111101100011000
00111110011001010010010111001011
00111111000001110010100001101011
00111111000011111001001101001000
10111101101011111101100100000011
10111110100100010111110110100000
10111111000101110101101010100001
10111110000111111011000110111111
00111110010000101101010000010000
00111110110100000111011000001111
00111110100111011101111010100110
10111110001001010011010111110010
10111110110011010101001100111010
10111111001001000111111110110100
00111110101110110111011010001110
10111110111101101000100001001010
10111111000011100110001110001101
00111101000110000101111011110101
00111110011111010110101100110011
10111110100011001100001111000001
10111110111010011110010100000100
10111101010011101000011111010101
00111110100000101101001110100111
10111011101111010111110011000011
00111101100010010111101010010110
10111110000101001001100011101011
10111110110110011011000011110100
10111110101110100011000101101101
00111111001001111000100101001001
00111111000000001011000011111111
00111110010101001010100101010111
10111101101001011110100000110100
10111101101110000110111100011101
10111111100011111010000101101010
00111110110110011001000101011111
00111110010101110101011101011110
10111110110010010011111100101100
00111100111100010111100001010010
10111110101011000111011110111111
10111110111010000101010000010100
10111110101011001110001011001100
00111110011000011101101001100010
00111110100001011011000011001111
00111110100100111010101100100101
10111110110110000111000010100100
00111110101101011100011010100110
00111110010100111111100101000010
10111110010110110111011010100101
00111110010110111011100011000110
00111110000001100001011011000101
00111110001101101111100111011011
10111111001000100111101001010011
10111110000011000111111010011010
00111110100001101111111011001110
00111110101001010011001001111111
00111110011011100000011000100011
10111110111001100100111110011110
10111110011011001011111010110100
00111110111101101010101001101001
10111110010001010010100101111111
10111110011100101001100000110000
10111100111101101101011111000101
10111111000000111111000000111110
10111110101110111100110111101101
00111101101101101100010101001011
10111110001110101011010011000011
00111101100010110100011000011111
00111101110111010111011011110011
10111110100101101101001111111111
00111110000111100101001100111100
00111110000110000100100101110111
00111110110110000110100111100110
10111100101011011000111000110111
10111110001001100011010110111010
10111110100011001000010101000111
00111101100110011010001100000011
00111110010101011101111110111001
10111110111111011001111111000011
10111110011100111101100010100010
10111110111110010011001100110101
00111100001010101100111111001000
00111110011011000001011101100000
00111110001000100100010100110011
10111110100000001111111010000111
10111111001000010111011110101110
00111110000110010011110000100001
00111110011110011111010100010110
10111101110110010100101100011010
00111110100001110110100001110011
10111011101111111110001110010000
10111110011111010011001101011011
10111101011111001001101100011000
10111101011001011110100001110011
10111110100011010000010010110100
10111110000111000110101111010111
00111101101000011000010100110111
00111110110000111010001101011101
10111101010100101000001100010111
10111101101100100100100011110001
00111110010010000100000110100011
00111110010001001010001101101110
00111110001111000000010110111110
10111110111010100101010100101110
10111111000110110011110111010101
00111111000101011111101101001111
10111110010001010100110110001101
10111110110001100001000010111100
10111110010001110010110100011011
10111110010101111010000110010001
00111110101011011101110101101010
00111110101110101010101110101111
10111110111101001111100101011011
00111101101111001001110000111110
00111110101011000010001111101110
00111101101011111100100101000100
10111110001111100001000010100100
10111110010100100001100001110110
10111110111001111001100010100100
10111101100111001011110111101111
10111110110000101100000011011001
00111111000011100001001010010011
00111110001110110110110111001101
10111110001001110000001111000110
00111110000100111101101001110001
10111110010111011111111100001110
00111111001011101011011010000110
00111110100111111110000001101000
00111101100110010010011001010100
00111110100010110010111110111011
10111011111111111101010110000101
10111110100110101000110010010011
10111111010010011101000000010110
00111111000100111001011000110010
00111111000000001001100101011111
00111101110000101100110000010110
10111110101000110011000100000011
10111110001000011111000101110011
00111110110101011000111000100011
10111111010111100110011010011110
10111110011011010101000111011110
10111110101111111010101100111000
10111110000010100010011000001000
10111110110100010000111110111110
10111101010010101101100011100100
00111110100001001011001001000011
00111100001001000000110011010101
10111110001011011101010001001010
10111110001100111010010111110010
10111101111111101000101001111010
10111110000100110001101111111100
10111100001000100101011101110111
10111111000110100000110000000111
00111110100010000011000011000101
00111110110111110100000111010110
10111101101010110000010011110010
00111101001001001101101111010000
10111100011010010101110010010100
00111100111001111010001011010011
00111101110111100001010111011111
00111101001011101100101111111010
00111110001001011011101001100000
00111110100000000100011111010010
10111101011011111110100001100010
10111111001010110111100000011001
00111101101111110100011011011000
00111110100000000000100010110000
10111110011011001110001000011000
10111111001100111111000000000000
00111101101110101011111001001000
00111110111000011000111000111110
10111110000100000100111010101001
10111110011001101101100011000011
10111110100001010101111110101110
10111111010010110000001100011010
00111101111000011100110000100011
00111101001100111011010001011000
10111111001001111110001101110000
00111110011101000100111101110000
00111110000111001101111101000001
10111101110110101111111101001110
10111111000010000000000010101110
10111100110001011010011010111101
00111110100110110011011111111111
00111110101100010100011101010100
10111110010110110001000100110111
00111110011100110011000001010000
10111110001010010010001100111100
10111110111001010110001111000011
00111110111111000111001110111000
00111101110000110000100110111011
00111110110011010000101010000000
00111110010001010010111010000100
00111110100110010001111111101100
10111111011011001100101011101000
10111101111011011011111010111010
10111111000001011101110011101011
10111101010110001000111010001111
10111100110111001010111000101011
10111110000101000000011101000010
10111101110110010101011001101111
10111110101100111000101101110111
00111110101000000111110101001100
10111010111110001011001000001100
00111110011011011111111101110000
10111110010111011110111101011011
10111110100100010010110000011010
00111110100101100101011000001100
00111110100010011111011101000101
10111100100001111010000000100000
00111110010110000101000000011000
10111110011000010111000111010000
10111101111111100111101110010000
10111110001010000010111010100100
00111110101000111010001101110100
00111110100101101010110110011101
10111110000001010111010010011010
00111100001100101101011100101001
10111111000000101111000100011100
00111101010101110011010010111100
10111011000110111000011010111000
10111111001100110111101101110011
00111110100001101110010100100000
00111110000001001110000100001011
10111101100010011011101101001100
10111101110001010101110110111100
10111110000111111000011011110111
00111110010010101011001000101011
10111110011000111010010101011010
10111111011011001101111111111001
10111110101100111110100000101011
10111110001000001100011110001100
00111101100011001110111101110101
10111101000100111111000010001100
00111101001110000111100011010010
00111101101011110011000101011011
10111101010100010001110000101000
00111100011100110100100001001101
00111101111001000011110100011000
10111110010000110110000111100000
00111101001101001100001001110010
00111101001101100100001101110111
00111101111101011001100111110000
10111011101010100111111000000100
00111101001110110001111111001111
00111101010101111010010010110011
10111110001000000101001100011111
00111110011100111101110101010001
10111101100110101010011110011100
00111111000111010011111011110100
00111110101011011111000000001111
10111110010110010101111110001011
00111111000001011110011011011011
10111110110111100001000110101001
10111110001100111011001110101101
00111110110101110010111100011001
10111111000110011010101010000010
00111101110101100000101010111000
00111101100111011101001100001000
10111110100100011111101101000101
10111101010110001011111000011010
00111110010100110111100110011100
00111110000111001110011100111111
10111101111000111100001000011111
10111101101110100100110111000100
10111110101100011011110011101001
10111110100001111011111110111001
00111110111000111011001010111000
00111101001001111011000111011011
10111110100101111010101110010011
00111100011100100011011000010101
00111110001000010100001000000000
00111101110101000101111000110011
10111110000011110010010000100100
10111101111000100010110010100011
10111110001000010110000011011100
10111101001101001011010010000100
10111110100110001100010110110011
10111101101000010100011001100101
00111110110001100010010100001100
10111101111111001101110101111100
00111101100001001000110000101010
00111110000101110001001000001000
10111110100100000100001101010100
00111010110110011011100111011001
10111101111010001011101001011100
10111101100001111110011010001110
10111110111010100011111100110100
00111110101101000111000001010011
10111110110011111100111110001111
10111110011100010010011111110101
00111101100100010101001100011001
10111111001001011001001100001000
00111101000001100010101110011011
10111101100111001100111110110011
00111110000001110011100111100111
10111100100111010000010000011001
10111110101000000110001011101111
00111101101001011010100001010110
10111111100011111110111000010001
00111110011000011011000101010101
10111101111110111100011010111100
00111111000110111110111000010001
10111111001100001100000001001110
10111100111011101101101110001101
00111101100001000000111011100110
00111100100000000111001111110001
00111111000101001110000100111101
10111110101001101000101110000011
10111110101111011000111011100100
00111110011010100111001100100001
00111101011011100000000011010010
00111110000010010101101110100010
00111110010100011111001111001101
00111101010000100110101100001100
00111111001010110101110100111110
00111101000011100001110000110010
10111110111011110111110100001100
00111110100000100111011111100001
00111110011100010111111010000001
00111110100001001001110010011010
10111111001110001100101100101111
00111111000100110010011111011110
10111111000111001100010001110010
00111110100010110110100011001110
00111011010011101111010010100001
10111110100110011100000110000001
00111110101111100000011000101111
10111111010110000010100111100000
00111011111011101011010000111011
10111110101000100110100100000011
00111110101110010000111110111101
00111110010101101010011001001010
00111101011101010110010001011000
10111111101000101010010101101110
00111110011010000110011111101100
10111111010000000010011001000110
00111110111111110110110011111100
00111110000101100000111010100110
00111101010110011001100000001111
10111110000111101011110110011100
10111110101110011000100010110100
00111110100000111011111001111000
10111110111001000101111010110111
00111110100010011000000111000011
10111110011101000111111010110110
10111110011010001100100011011101
10111101101110101000100000011100
10111101100101111011110001000110
00111111000010110001011010011100
10111110101111011000101111010111
00111110101110111011111010010101
10111110100100010011011111100110
00111110101011000010110101101110
10111110111011111000110100110010
10111110101101010100111001000111
10111110101100111000010101010001
10111110000001100100110110100111
00111110110010010111101100111010
10111110100101000010111111001010
00111110111010011010010000000000
00111100100011110100001001101001
10111110111000111111000000101000
10111101010101101000010100101100
00111110110010110100010000110101
10111111010001110000110010001000
00111110110001100101101000001011
10111110100111000111111110001100
00111101110011011010001110001111
00111110110100000100010001001000
00111110101111001000011010111101
00111110100010100110110000010100
10111110011000111111100110010000
00111110111001100100010101110111
10111110101101101100110000110101
10111101100101101001110000011001
10111110100110011001010110110001
10111110111011101111000110001010
10111110111011010111001111000001
00111110001001001111011010010111
10111110110111000000011001011000
00111101100011011011111000010110
00111110100000011001010101100000
00111110001101000000000010101100
10111110011111111101001100010100
00111110111100111011001110000000
10111101000110101101110101111101
00111110011011111010100101100110
10111100101101110010001010111000
10111110110000000111111010100110
10111110101101100111010100011100
10111101011101010101010100011110
00111110101010101111111010111111
10111101010001001010011001101011
00111110001011110010110011001110
10111110101010010101011011101101
10111101001001001101011000001110
00111110111000100011110111100000
00111111000111100000010101100010
10111110011110011001111001010010
00111110011000000011110101110110
10111101001000001010010010000101
10111111001101110001110100011010
00111110011101010110100010011000
00111111001000000011011111111011
10111111001110100010000100011010
00111110110000010011110010100000
10111110110011000100110110000100
10111110001011000101110100111001
00111101101100111000110010010111
10111110111000111111011000100111
10111101101111011100000111011101
10111111100011000001100010111000
00111101101111001010111111110110
10111101111111001010011000001000
00111110011111001001001010000110
10111101000000100110100101111010
00111101111110111110011001000101
10111110111010011111101000010110
10111101101111011101010000110110
10111110101101010001011010001010
00111110110011100110010000111100
00111100101100011110011010000100
00111110101111011100111000011000
10111101000101001011011000101000
10111110101001001101000011101011
10111101000111010010111000010111
10111110000100110101000011011111
00111101110001010101001101110001
10111110011101001011111111100110
00111010110110001111001011011011
10111110001010101101101110101000
10111110101000101001101011010111
10111011001111110010001010000110
00111110010111100111111010010110
10111110100000010101011100100100
10111011101010111000000110111000
10111110100000010000101101111101
00111110100000011110011100110100
00111101000101011111000001110010
00111101110111000100100110110000
10111101111110010000110011111011
10111110100010000100100000011111
10111101111000001000001110011011
00111110101001000000000111110000
10111110001001010011000000000001
10111101001100010010001000000001
10111110101111000110001110001000
10111110000101100000101011111110
10111110110101010110100110100011
00111110111110111000001111001001
00111101100011011010010010011010
00111111011111010110100011111100
10111001100001000111100010010100
10111110100011010000011000000010
10111111001000111011011001110011
10111110001011000010101111001110
00111110100100110100010110100010
00111101001101101111011111111111
10111110110011001111011001111001
10111110110001011001101010100110
00111110100100100111011111110001
00111101111010010011011011110001
00111110100100001010111100011010
10111101110011011111010010001000
00111110100001001101001011100011
00111101111111101000000001111100
10111110001000011100101001001100
10111111010011011010001011011010
00111111000010100010011111011000
00111111000110000110111001101001
10111101101000000101000111000001
10111110000111011110001010101101
10111101100101100100000001000110
10111110010110011010000110001100
10111111000010111100100111110000
10111101010001001101110011011111
10111110111001101100000110110010
00111110100011001011011010011010
00111110000111101000000000110010
00111110100011110111010000011101
10111110010110000010111001101110
00111101100001010111001111100011
10111110011010000101111010100111
10111110001011011011101010001110
10111101000011111101000001001000
10111110101000011000001110110001
00111101110011101111101011111101
