0011111111001101100000010101100100000000000000000000000000000000
1011111111011000111111011011100010000000000000000000000000000000
0011111111001011010111010111000011100000000000000000000000000000
1011111110001101111101000110000100000000000000000000000000000000
1011111111001101111110011011101110000000000000000000000000000000
1011111111001010111110110101101000000000000000000000000000000000
0011111110111001111110011001111001000000000000000000000000000000
0011111111000010011001101100101100000000000000000000000000000000
1011111110000011100110011001001011100000000000000000000000000000
0011111111000001000010111010011010000000000000000000000000000000
1011111110111100010101101000111111000000000000000000000000000000
1011111110010100001101110010101111000000000000000000000000000000
1011111110111011000110111111101010100000000000000000000000000000
1011111110110110010110110010101110000000000000000000000000000000
0011111111101000111010101100001001100000000000000000000000000000
1011111111011010010000010101110100000000000000000000000000000000
0011111111000011101001111101110100000000000000000000000000000000
0011111111000000010010100001001010100000000000000000000000000000
1011111111010110010000010100011010100000000000000000000000000000
1011111111100011000111111111101111000000000000000000000000000000
0011111110100100001100101100010101000000000000000000000000000000
0011111110010100001111000001111111100000000000000000000000000000
0011111110100010010101100101100110000000000000000000000000000000
0011111111100000101001100010101001000000000000000000000000000000
0011111111001110001110010101000010100000000000000000000000000000
1011111111010110110111101011010011000000000000000000000000000000
1011111111100010110101000001110100000000000000000000000000000000
0011111111010110000111100100100111000000000000000000000000000000
0011111110111100000010011010110010100000000000000000000000000000
1011111111010000100101001000010011100000000000000000000000000000
1011111111011011100001100111101001100000000000000000000000000000
1011111111000101001000111000110010100000000000000000000000000000
1011111111010010100100101110100001100000000000000000000000000000
1011111110111010000111001010010110100000000000000000000000000000
1011111110111101100011001001000110000000000000000000000000000000
1011111111000111110101000010100111100000000000000000000000000000
0011111111000100000010110101010000000000000000000000000000000000
0011111111010010111111001010111101000000000000000000000000000000
1011111110010111000111101110011011100000000000000000000000000000
1011111110110000100100111100110000100000000000000000000000000000
0011111111010011011001100100100100000000000000000000000000000000
0011111111000001000100011100010110000000000000000000000000000000
1011111111000000010011001011100101000000000000000000000000000000
1011111110110101101101111001100100100000000000000000000000000000
0011111110100101100100100101101110100000000000000000000000000000
0011111110111000010100100001100001100000000000000000000000000000
0011111111011101000011110001011101000000000000000000000000000000
1011111110111010101100101111011001000000000000000000000000000000
1011111111010111011011110110011011000000000000000000000000000000
0011111111000000100110011111001111100000000000000000000000000000
1011111111011011010000100111010010000000000000000000000000000000
0011111111011100101000011000010110000000000000000000000000000000
1011111110101100001010111010010100000000000000000000000000000000
0011111111100011001111101100100111100000000000000000000000000000
1011111111000010011011110011011000100000000000000000000000000000
1011111111100001010101001011101010100000000000000000000000000000
1011111111100001110111000110011011000000000000000000000000000000
1011111111010100011100111110010100100000000000000000000000000000
1011111111010100111011111010000100000000000000000000000000000000
0011111110110001100000100100101000000000000000000000000000000000
0011111110101100110001010111001001100000000000000000000000000000
1011111111001001000111001101111000100000000000000000000000000000
0011111111001100011010100010001100100000000000000000000000000000
0011111111010000111101011000010010100000000000000000000000000000
1011111111101001010001010001101011100000000000000000000000000000
0011111110110111001001101001100010000000000000000000000000000000
1011111111110011111000100101110000000000000000000000000000000000
0011111111100000111010100001100010100000000000000000000000000000
1011111110010011100110110010111100000000000000000000000000000000
1011111110011110110001000111100101100000000000000000000000000000
1011111111010011110010101011010110000000000000000000000000000000
0011111111001110101100000011111001100000000000000000000000000000
1011111111011001111110101101010101100000000000000000000000000000
1011111111011001101100010100000010100000000000000000000000000000
1011111110100101001110010000000011000000000000000000000000000000
0011111111001111100101110100100000000000000000000000000000000000
1011111111001010111010011111000100100000000000000000000000000000
1011111111010101110000010000100101100000000000000000000000000000
0011111111001001111010000111000111100000000000000000000000000000
0011111110101011110001101100001001100000000000000000000000000000
1011111111000000111111000111111011100000000000000000000000000000
0011111111011101001111110000000111000000000000000000000000000000
1011111111011010101101001110001101100000000000000000000000000000
1011111110011000101011010000100100100000000000000000000000000000
0011111111011100100100100010000001000000000000000000000000000000
0011111111010011110000000111101100000000000000000000000000000000
0011111111010000100111010000000110100000000000000000000000000000
0011111111000101011101000101101111000000000000000000000000000000
1011111110110111110101011110100000000000000000000000000000000000
0011111110100110000111111100110011100000000000000000000000000000
1011111111010101010001111111111001100000000000000000000000000000
0011111110111101000100010101000000000000000000000000000000000000
0011111111010000010001111000110001000000000000000000000000000000
0011111111011000111101011101101101100000000000000000000000000000
1011111111010001001101110010100010100000000000000000000000000000
1011111111100101001100001010111011000000000000000000000000000000
1011111111001101110101011101101101100000000000000000000000000000
0011111110110000111111111111001001000000000000000000000000000000
0011111111001100000010010000101110000000000000000000000000000000
0011111111000011101000001011110110000000000000000000000000000000
0011111111010000000100100000100101100000000000000000000000000000
1011111111100010110101100111010100000000000000000000000000000000
0011111111010000011101110110111111100000000000000000000000000000
1011111111000001001011010010110011000000000000000000000000000000
1011111111101110111111100111010011000000000000000000000000000000
1011111110111111100011010111000111100000000000000000000000000000
1011111111011001100010111011111101000000000000000000000000000000
0011111111001001110001001101010000000000000000000000000000000000
1011111110111111101101000010110111000000000000000000000000000000
0011111111001010111101011100110000100000000000000000000000000000
1011111110101101000111100011101001100000000000000000000000000000
1011111110000001000001000111101111100000000000000000000000000000
1011111111100110011010000111100111100000000000000000000000000000
1011111110010110111110010000010011000000000000000000000000000000
0011111111000011000011001010111001000000000000000000000000000000
0011111111000111011010010000100001100000000000000000000000000000
1011111110111101011001110101111101100000000000000000000000000000
1011111111011110101001110101110111000000000000000000000000000000
0011111110100011000100101000011111100000000000000000000000000000
0011111110111001100110010101011010000000000000000000000000000000
1011111111001100010001001011101000100000000000000000000000000000
0011111111010101111011111000111100100000000000000000000000000000
0011111110110110101001001011001000100000000000000000000000000000
1011111111000100101010001010100000000000000000000000000000000000
0011111110101101110010101110100001000000000000000000000000000000
1011111111010000111101001010111101100000000000000000000000000000
1011111110110011110101000000011010100000000000000000000000000000
1011111111000100011110001001010010000000000000000000000000000000
1011111110011111010000010110110011100000000000000000000000000000
1011111111010010111011011010010010000000000000000000000000000000
1011111111000001011001011101010001100000000000000000000000000000
1011111110110110010111001001001010100000000000000000000000000000
1011111111000011101110011011110010000000000000000000000000000000
1011111111010001011101010001011110100000000000000000000000000000
1011111111010111100010100001001001100000000000000000000000000000
0011111111100001100000100001110111000000000000000000000000000000
0011111111000100100101110111011000000000000000000000000000000000
0011111110011101101010001010011101100000000000000000000000000000
0011111111000100100110011101100100000000000000000000000000000000
1011111111011000011111111010111110000000000000000000000000000000
0011111111010101000100011110001101000000000000000000000000000000
1011111111101000100000011100001101100000000000000000000000000000
1011111110100100111010000110100010100000000000000000000000000000
0011111110001101100011110010000110100000000000000000000000000000
1011111111101000011000010100101100000000000000000000000000000000
0011111111000010000110111011010001000000000000000000000000000000
1011111111001100100111111010001111000000000000000000000000000000
0011111110110111001101000110101100100000000000000000000000000000
0011111111000010000110011011011100100000000000000000000000000000
0011111111010000010000000010110010100000000000000000000000000000
0011111111011000110110110001111000000000000000000000000000000000
1011111111010011010110100100100001100000000000000000000000000000
1011111111010011001000000111110111000000000000000000000000000000
1011111111100001110111110110001100000000000000000000000000000000
0011111111001100101001001011100101100000000000000000000000000000
0011111111100000111001010000110101100000000000000000000000000000
0011111111100001111100100110100100000000000000000000000000000000
1011111110110101111110110010000001100000000000000000000000000000
1011111111010010001011111011010000000000000000000000000000000000
1011111111100010111010110101010000100000000000000000000000000000
1011111111000011111101100011011111100000000000000000000000000000
0011111111001000010110101000001000000000000000000000000000000000
0011111111011010000011101100000111100000000000000000000000000000
0011111111010011101110111101010011000000000000000000000000000000
1011111111000100101001101011111001000000000000000000000000000000
1011111111011001101010100110011101000000000000000000000000000000
1011111111100100100011111111011010000000000000000000000000000000
0011111111010111011011101101000111000000000000000000000000000000
1011111111011110110100010000100101000000000000000000000000000000
1011111111100001110011000111000110100000000000000000000000000000
0011111110100011000010111101111010100000000000000000000000000000
0011111111001111101011010110011001100000000000000000000000000000
1011111111010001100110000111100000100000000000000000000000000000
1011111111011101001111001010000010000000000000000000000000000000
1011111110101001110100001111101010100000000000000000000000000000
0011111111010000010110100111010011100000000000000000000000000000
1011111101110111101011111001100001100000000000000000000000000000
0011111110110001001011110101001011000000000000000000000000000000
1011111111000010100100110001110101100000000000000000000000000000
1011111111011011001101100001111010000000000000000000000000000000
1011111111010111010001100010110110100000000000000000000000000000
0011111111100100111100010010100100100000000000000000000000000000
0011111111100000000101100001111111100000000000000000000000000000
0011111111001010100101010010101011100000000000000000000000000000
1011111110110100101111010000011010000000000000000000000000000000
1011111110110111000011011110001110100000000000000000000000000000
1011111111110001111101000010110101000000000000000000000000000000
0011111111011011001100100010101111100000000000000000000000000000
0011111111001010111010101110101111000000000000000000000000000000
1011111111011001001001111110010110000000000000000000000000000000
0011111110011110001011110000101001000000000000000000000000000000
1011111111010101100011101111011111100000000000000000000000000000
1011111111011101000010101000001010000000000000000000000000000000
1011111111010101100111000101100110000000000000000000000000000000
0011111111001100001110110100110001000000000000000000000000000000
0011111111010000101101100001100111100000000000000000000000000000
0011111111010010011101010110010010100000000000000000000000000000
1011111111011011000011100001010010000000000000000000000000000000
0011111111010110101110001101010011000000000000000000000000000000
0011111111001010011111110010100001000000000000000000000000000000
1011111111001011011011101101010010100000000000000000000000000000
0011111111001011011101110001100011000000000000000000000000000000
0011111111000000110000101101100010100000000000000000000000000000
0011111111000110110111110011101101100000000000000000000000000000
1011111111100100010011110100101001100000000000000000000000000000
1011111111000001100011111101001101000000000000000000000000000000
0011111111010000110111111101100111000000000000000000000000000000
0011111111010100101001100100111111100000000000000000000000000000
0011111111001101110000001100010001100000000000000000000000000000
1011111111011100110010011111001111000000000000000000000000000000
1011111111001101100101111101011010000000000000000000000000000000
0011111111011110110101010100110100100000000000000000000000000000
1011111111001000101001010010111111100000000000000000000000000000
1011111111001110010100110000011000000000000000000000000000000000
1011111110011110110110101111100010100000000000000000000000000000
1011111111100000011111100000011111000000000000000000000000000000
1011111111010111011110011011110110100000000000000000000000000000
0011111110110110110110001010100101100000000000000000000000000000
1011111111000111010101101001100001100000000000000000000000000000
0011111110110001011010001100001111100000000000000000000000000000
0011111110111011101011101101111001100000000000000000000000000000
1011111111010010110110100111111111100000000000000000000000000000
0011111111000011110010100110011110000000000000000000000000000000
0011111111000011000010010010111011100000000000000000000000000000
0011111111011011000011010011110011000000000000000000000000000000
1011111110010101101100011100011011100000000000000000000000000000
1011111111000100110001101011011101000000000000000000000000000000
1011111111010001100100001010100011100000000000000000000000000000
0011111110110011001101000110000001100000000000000000000000000000
0011111111001010101110111111011100100000000000000000000000000000
1011111111011111101100111111100001100000000000000000000000000000
1011111111001110011110110001010001000000000000000000000000000000
1011111111011111001001100110011010100000000000000000000000000000
0011111110000101010110011111100100000000000000000000000000000000
0011111111001101100000101110110000000000000000000000000000000000
0011111111000100010010001010011001100000000000000000000000000000
1011111111010000000111111101000011100000000000000000000000000000
1011111111100100001011101111010111000000000000000000000000000000
0011111111000011001001111000010000100000000000000000000000000000
0011111111001111001111101010001011000000000000000000000000000000
1011111110111011001010010110001101000000000000000000000000000000
0011111111010000111011010000111001100000000000000000000000000000
1011111101110111111111000111001000000000000000000000000000000000
1011111111001111101001100110101101100000000000000000000000000000
1011111110101111100100110110001100000000000000000000000000000000
1011111110101100101111010000111001100000000000000000000000000000
1011111111010001101000001001011010000000000000000000000000000000
1011111111000011100011010111101011100000000000000000000000000000
0011111110110100001100001010011011100000000000000000000000000000
0011111111011000011101000110101110100000000000000000000000000000
1011111110101010010100000110001011100000000000000000000000000000
1011111110110110010010010001111000100000000000000000000000000000
0011111111001001000010000011010001100000000000000000000000000000
0011111111001000100101000110110111000000000000000000000000000000
0011111111000111100000001011011111000000000000000000000000000000
1011111111011101010010101010010111000000000000000000000000000000
1011111111100011011001111011101010100000000000000000000000000000
0011111111100010101111110110100111100000000000000000000000000000
1011111111001000101010011011000110100000000000000000000000000000
1011111111011000110000100001011110000000000000000000000000000000
1011111111001000111001011010001101100000000000000000000000000000
1011111111001010111101000011001000100000000000000000000000000000
0011111111010101101110111010110101000000000000000000000000000000
0011111111010111010101010111010111100000000000000000000000000000
1011111111011110100111110010101101100000000000000000000000000000
0011111110110111100100111000011111000000000000000000000000000000
0011111111010101100001000111110111000000000000000000000000000000
0011111110110101111110010010100010000000000000000000000000000000
1011111111000111110000100001010010000000000000000000000000000000
1011111111001010010000110000111011000000000000000000000000000000
1011111111011100111100110001010010000000000000000000000000000000
1011111110110011100101111011110111100000000000000000000000000000
1011111111011000010110000001101100100000000000000000000000000000
0011111111100001110000100101001001100000000000000000000000000000
0011111111000111011011011011100110100000000000000000000000000000
1011111111000100111000000111100011000000000000000000000000000000
0011111111000010011110110100111000100000000000000000000000000000
1011111111001011101111111110000111000000000000000000000000000000
0011111111100101110101101101000011000000000000000000000000000000
0011111111010011111111000000110100000000000000000000000000000000
0011111110110011001001001100101010000000000000000000000000000000
0011111111010001011001011111011101100000000000000000000000000000
1011111101111111111110101011000010100000000000000000000000000000
1011111111010011010100011001001001100000000000000000000000000000
1011111111101001001110100000001011000000000000000000000000000000
0011111111100010011100101100011001000000000000000000000000000000
0011111111100000000100110010101111100000000000000000000000000000
0011111110111000010110011000001011000000000000000000000000000000
1011111111010100011001100010000001100000000000000000000000000000
1011111111000100001111100010111001100000000000000000000000000000
0011111111011010101100011100010001100000000000000000000000000000
1011111111101011110011001101001111000000000000000000000000000000
1011111111001101101010100011101111000000000000000000000000000000
1011111111010111111101010110011100000000000000000000000000000000
1011111111000001010001001100000100000000000000000000000000000000
1011111111011010001000011111011111000000000000000000000000000000
1011111110101001010110110001110010000000000000000000000000000000
0011111111010000100101100100100001100000000000000000000000000000
0011111110000100100000011001101010100000000000000000000000000000
1011111111000101101110101000100101000000000000000000000000000000
1011111111000110011101001011111001000000000000000000000000000000
1011111110111111110100010100111101000000000000000000000000000000
1011111111000010011000110111111110000000000000000000000000000000
1011111110000100010010101110111011100000000000000000000000000000
1011111111100011010000011000000011100000000000000000000000000000
0011111111010001000001100001100010100000000000000000000000000000
0011111111011011111010000011101011000000000000000000000000000000
1011111110110101011000001001111001000000000000000000000000000000
0011111110100100100110110111101000000000000000000000000000000000
1011111110001101001010111001001010000000000000000000000000000000
0011111110011100111101000101101001100000000000000000000000000000
0011111110111011110000101011101111100000000000000000000000000000
0011111110100101110110010111111101000000000000000000000000000000
0011111111000100101101110100110000000000000000000000000000000000
0011111111010000000010001111101001000000000000000000000000000000
1011111110101101111111010000110001000000000000000000000000000000
1011111111100101011011110000001100100000000000000000000000000000
0011111110110111111010001101101100000000000000000000000000000000
0011111111010000000000010001011000000000000000000000000000000000
1011111111001101100111000100001100000000000000000000000000000000
1011111111100110011111100000000000000000000000000000000000000000
0011111110110111010101111100100100000000000000000000000000000000
0011111111011100001100011100011111000000000000000000000000000000
1011111111000010000010011101010100100000000000000000000000000000
1011111111001100110110110001100001100000000000000000000000000000
1011111111010000101010111111010111000000000000000000000000000000
1011111111101001011000000110001101000000000000000000000000000000
0011111110111100001110011000010001100000000000000000000000000000
0011111110100110011101101000101100000000000000000000000000000000
1011111111100100111111000110111000000000000000000000000000000000
0011111111001110100010011110111000000000000000000000000000000000
0011111111000011100110111110100000100000000000000000000000000000
1011111110111011010111111110100111000000000000000000000000000000
1011111111100001000000000001010111000000000000000000000000000000
1011111110011000101101001101011110100000000000000000000000000000
0011111111010011011001101111111111100000000000000000000000000000
0011111111010110001010001110101010000000000000000000000000000000
1011111111001011011000100010011011100000000000000000000000000000
0011111111001110011001100000101000000000000000000000000000000000
1011111111000101001001000110011110000000000000000000000000000000
1011111111011100101011000111100001100000000000000000000000000000
0011111111011111100011100111011100000000000000000000000000000000
0011111110111000011000010011011101100000000000000000000000000000
0011111111011001101000010101000000000000000000000000000000000000
0011111111001000101001011101000010000000000000000000000000000000
0011111111010011001000111111110110000000000000000000000000000000
1011111111101101100110010101110100000000000000000000000000000000
1011111110111101101101111101011101000000000000000000000000000000
1011111111100000101110111001110101100000000000000000000000000000
1011111110101011000100011101000111100000000000000000000000000000
1011111110011011100101011100010101100000000000000000000000000000
1011111111000010100000001110100001000000000000000000000000000000
1011111110111011001010101100110111100000000000000000000000000000
1011111111010110011100010110111011100000000000000000000000000000
0011111111010100000011111010100110000000000000000000000000000000
1011111101011111000101100100000110000000000000000000000000000000
0011111111001101101111111110111000000000000000000000000000000000
1011111111001011101111011110101101100000000000000000000000000000
1011111111010010001001011000001101000000000000000000000000000000
0011111111010010110010101100000110000000000000000000000000000000
0011111111010001001111101110100010100000000000000000000000000000
1011111110010000111101000000010000000000000000000000000000000000
0011111111001011000010100000001100000000000000000000000000000000
1011111111001100001011100011101000000000000000000000000000000000
1011111110111111110011110111001000000000000000000000000000000000
1011111111000101000001011101010010000000000000000000000000000000
0011111111010100011101000110111010000000000000000000000000000000
0011111111010010110101011011001110100000000000000000000000000000
1011111111000000101011101001001101000000000000000000000000000000
0011111110000110010110101110010100100000000000000000000000000000
1011111111100000010111100010001110000000000000000000000000000000
0011111110101010111001101001011110000000000000000000000000000000
1011111101100011011100001101011100000000000000000000000000000000
1011111111100110011011110110111001100000000000000000000000000000
0011111111010000110111001010010000000000000000000000000000000000
0011111111000000100111000010000101100000000000000000000000000000
1011111110110001001101110110100110000000000000000000000000000000
1011111110111000101010111011011110000000000000000000000000000000
1011111111000011111100001101111011100000000000000000000000000000
0011111111001001010101100100010101100000000000000000000000000000
1011111111001100011101001010101101000000000000000000000000000000
1011111111101101100110111111111100100000000000000000000000000000
1011111111010110011111010000010101100000000000000000000000000000
1011111111000100000110001111000110000000000000000000000000000000
0011111110110001100111011110111010100000000000000000000000000000
1011111110100010011111100001000110000000000000000000000000000000
0011111110100111000011110001101001000000000000000000000000000000
0011111110110101111001100010101101100000000000000000000000000000
1011111110101010001000111000010100000000000000000000000000000000
0011111110001110011010010000100110100000000000000000000000000000
0011111110111100100001111010001100000000000000000000000000000000
1011111111001000011011000011110000000000000000000000000000000000
0011111110100110100110000100111001000000000000000000000000000000
0011111110100110110010000110111011100000000000000000000000000000
0011111110111110101100110011111000000000000000000000000000000000
1011111101110101010011111100000010000000000000000000000000000000
0011111110100111011000111111100111100000000000000000000000000000
0011111110101010111101001001011001100000000000000000000000000000
1011111111000100000010100110001111100000000000000000000000000000
0011111111001110011110111010101000100000000000000000000000000000
1011111110110011010101001111001110000000000000000000000000000000
0011111111100011101001111101111010000000000000000000000000000000
0011111111010101101111100000000111100000000000000000000000000000
1011111111001011001010111111000101100000000000000000000000000000
0011111111100000101111001101101101100000000000000000000000000000
1011111111011011110000100011010100100000000000000000000000000000
1011111111000110011101100111010110100000000000000000000000000000
0011111111011010111001011110001100100000000000000000000000000000
1011111111100011001101010101000001000000000000000000000000000000
0011111110111010110000010101011100000000000000000000000000000000
0011111110110011101110100110000100000000000000000000000000000000
1011111111010010001111110110100010100000000000000000000000000000
1011111110101011000101111100001101000000000000000000000000000000
0011111111001010011011110011001110000000000000000000000000000000
0011111111000011100111001110011111100000000000000000000000000000
1011111110111100011110000100001111100000000000000000000000000000
1011111110110111010010011011100010000000000000000000000000000000
1011111111010110001101111001110100100000000000000000000000000000
1011111111010000111101111111011100100000000000000000000000000000
0011111111011100011101100101011100000000000000000000000000000000
0011111110100100111101100011101101100000000000000000000000000000
1011111111010010111101010111001001100000000000000000000000000000
0011111110001110010001101100001010100000000000000000000000000000
0011111111000100001010000100000000000000000000000000000000000000
0011111110111010100010111100011001100000000000000000000000000000
1011111111000001111001001000010010000000000000000000000000000000
1011111110111100010001011001010001100000000000000000000000000000
1011111111000100001011000001101110000000000000000000000000000000
1011111110100110100101101001000010000000000000000000000000000000
1011111111010011000110001011011001100000000000000000000000000000
1011111110110100001010001100110010100000000000000000000000000000
0011111111011000110001001010000110000000000000000000000000000000
1011111110111111100110111010111110000000000000000000000000000000
0011111110110000100100011000010101000000000000000000000000000000
0011111111000010111000100100000100000000000000000000000000000000
1011111111010010000010000110101010000000000000000000000000000000
0011111101011011001101110011101100100000000000000000000000000000
1011111110111101000101110100101110000000000000000000000000000000
1011111110110000111111001101000111000000000000000000000000000000
1011111111011101010001111110011010000000000000000000000000000000
0011111111010110100011100000101001100000000000000000000000000000
1011111111011001111110011111000111100000000000000000000000000000
1011111111001110001001001111111010100000000000000000000000000000
0011111110110010001010100110001100100000000000000000000000000000
1011111111100100101100100110000100000000000000000000000000000000
0011111110100000110001010111001101100000000000000000000000000000
1011111110110011100110011111011001100000000000000000000000000000
0011111111000000111001110011110011100000000000000000000000000000
1011111110010011101000001000001100100000000000000000000000000000
1011111111010100000011000101110111100000000000000000000000000000
0011111110110100101101010000101011000000000000000000000000000000
1011111111110001111111011100001000100000000000000000000000000000
0011111111001100001101100010101010100000000000000000000000000000
1011111110111111011110001101011110000000000000000000000000000000
0011111111100011011111011100001000100000000000000000000000000000
1011111111100110000110000000100111000000000000000000000000000000
1011111110011101110110110111000110100000000000000000000000000000
0011111110110000100000011101110011000000000000000000000000000000
0011111110010000000011100111111000100000000000000000000000000000
0011111111100010100111000010011110100000000000000000000000000000
1011111111010100110100010111000001100000000000000000000000000000
1011111111010111101100011101110010000000000000000000000000000000
0011111111001101010011100110010000100000000000000000000000000000
0011111110101101110000000001101001000000000000000000000000000000
0011111111000001001010110111010001000000000000000000000000000000
0011111111001010001111100111100110100000000000000000000000000000
0011111110101000010011010110000110000000000000000000000000000000
0011111111100101011010111010011111000000000000000000000000000000
0011111110100001110000111000011001000000000000000000000000000000
1011111111011101111011111010000110000000000000000000000000000000
0011111111010000010011101111110000100000000000000000000000000000
0011111111001110001011111101000000100000000000000000000000000000
0011111111010000100100111001001101000000000000000000000000000000
1011111111100111000110010110010111100000000000000000000000000000
0011111111100010011001001111101111000000000000000000000000000000
1011111111100011100110001000111001000000000000000000000000000000
0011111111010001011011010001100111000000000000000000000000000000
0011111101101001110111101001010000100000000000000000000000000000
1011111111010011001110000011000000100000000000000000000000000000
0011111111010111110000001100010111100000000000000000000000000000
1011111111101011000001010011110000000000000000000000000000000000
0011111101111101110101101000011101100000000000000000000000000000
1011111111010100010011010010000001100000000000000000000000000000
0011111111010111001000011111011110100000000000000000000000000000
0011111111001010110101001100100101000000000000000000000000000000
0011111110101110101011001000101100000000000000000000000000000000
1011111111110100010101001010110111000000000000000000000000000000
0011111111001101000011001111110110000000000000000000000000000000
1011111111101000000001001100100011000000000000000000000000000000
0011111111011111111011011001111110000000000000000000000000000000
0011111111000010110000011101010011000000000000000000000000000000
0011111110101011001100110000000111100000000000000000000000000000
1011111111000011110101111011001110000000000000000000000000000000
1011111111010111001100010001011010000000000000000000000000000000
0011111111010000011101111100111100000000000000000000000000000000
1011111111011100100010111101011011100000000000000000000000000000
0011111111010001001100000011100001100000000000000000000000000000
1011111111001110100011111101011011000000000000000000000000000000
1011111111001101000110010001101110100000000000000000000000000000
1011111110110111010100010000001110000000000000000000000000000000
1011111110110010111101111000100011000000000000000000000000000000
0011111111100001011000101101001110000000000000000000000000000000
1011111111010111101100010111101011100000000000000000000000000000
0011111111010111011101111101001010100000000000000000000000000000
1011111111010010001001101111110011000000000000000000000000000000
0011111111010101100001011010110111000000000000000000000000000000
1011111111011101111100011010011001000000000000000000000000000000
1011111111010110101010011100100011100000000000000000000000000000
1011111111010110011100001010101000100000000000000000000000000000
1011111111000000110010011011010011100000000000000000000000000000
0011111111011001001011110110011101000000000000000000000000000000
1011111111010010100001011111100101000000000000000000000000000000
0011111111011101001101001000000000000000000000000000000000000000
0011111110010001111010000100110100100000000000000000000000000000
1011111111011100011111100000010100000000000000000000000000000000
1011111110101010110100001010010110000000000000000000000000000000
0011111111011001011010001000011010100000000000000000000000000000
1011111111101000111000011001000100000000000000000000000000000000
0011111111011000110010110100000101100000000000000000000000000000
1011111111010011100011111111000110000000000000000000000000000000
0011111110111001101101000111000111100000000000000000000000000000
0011111111011010000010001000100100000000000000000000000000000000
0011111111010111100100001101011110100000000000000000000000000000
0011111111010001010011011000001010000000000000000000000000000000
1011111111001100011111110011001000000000000000000000000000000000
0011111111011100110010001010111011100000000000000000000000000000
1011111111010110110110011000011010100000000000000000000000000000
1011111110110010110100111000001100100000000000000000000000000000
1011111111010011001100101011011000100000000000000000000000000000
1011111111011101110111100011000101000000000000000000000000000000
1011111111011101101011100111100000100000000000000000000000000000
0011111111000100100111101101001011100000000000000000000000000000
1011111111011011100000001100101100000000000000000000000000000000
0011111110110001101101111100001011000000000000000000000000000000
0011111111010000001100101010110000000000000000000000000000000000
0011111111000110100000000001010110000000000000000000000000000000
1011111111001111111110100110001010000000000000000000000000000000
0011111111011110011101100111000000000000000000000000000000000000
1011111110100011010110111010111110100000000000000000000000000000
0011111111001101111101010010110011000000000000000000000000000000
1011111110010110111001000101011100000000000000000000000000000000
1011111111011000000011111101010011000000000000000000000000000000
1011111111010110110011101010001110000000000000000000000000000000
1011111110101110101010101010001111000000000000000000000000000000
0011111111010101010111111101011111100000000000000000000000000000
1011111110101000100101001100110101100000000000000000000000000000
0011111111000101111001011001100111000000000000000000000000000000
1011111111010101001010101101110110100000000000000000000000000000
1011111110100100100110101100000111000000000000000000000000000000
0011111111011100010001111011110000000000000000000000000000000000
0011111111100011110000001010110001000000000000000000000000000000
1011111111001111001100111100101001000000000000000000000000000000
0011111111001100000001111010111011000000000000000000000000000000
1011111110100100000101001001000010100000000000000000000000000000
1011111111100110111000111010001101000000000000000000000000000000
0011111111001110101011010001001100000000000000000000000000000000
0011111111100100000001101111111101100000000000000000000000000000
1011111111100111010001000010001101000000000000000000000000000000
0011111111011000001001111001010000000000000000000000000000000000
1011111111011001100010011011000010000000000000000000000000000000
1011111111000101100010111010011100100000000000000000000000000000
0011111110110110011100011001001011100000000000000000000000000000
1011111111011100011111101100010011100000000000000000000000000000
1011111110110111101110000011101110100000000000000000000000000000
1011111111110001100000110001011100000000000000000000000000000000
0011111110110111100101011111111011000000000000000000000000000000
1011111110111111100101001100000100000000000000000000000000000000
0011111111001111100100100101000011000000000000000000000000000000
1011111110100000010011010010111101000000000000000000000000000000
0011111110111111011111001100100010100000000000000000000000000000
1011111111011101001111110100001011000000000000000000000000000000
1011111110110111101110101000011011000000000000000000000000000000
1011111111010110101000101101000101000000000000000000000000000000
0011111111011001110011001000011110000000000000000000000000000000
0011111110010110001111001101000010000000000000000000000000000000
0011111111010111101110011100001100000000000000000000000000000000
1011111110100010100101101100010100000000000000000000000000000000
1011111111010100100110100001110101100000000000000000000000000000
1011111110100011101001011100001011100000000000000000000000000000
1011111111000010011010100001101111100000000000000000000000000000
0011111110111000101010100110111000100000000000000000000000000000
1011111111001110100101111111110011000000000000000000000000000000
0011111101011011000111100101101101100000000000000000000000000000
1011111111000101010110110111010100000000000000000000000000000000
1011111111010100010100110101101011100000000000000000000000000000
1011111101100111111001000101000011000000000000000000000000000000
0011111111001011110011111101001011000000000000000000000000000000
1011111111010000001010101110010010000000000000000000000000000000
1011111101110101011100000011011100000000000000000000000000000000
1011111111010000001000010110111110100000000000000000000000000000
0011111111010000001111001110011010000000000000000000000000000000
0011111110100010101111100000111001000000000000000000000000000000
0011111110111011100010010011011000000000000000000000000000000000
1011111110111111001000011001111101100000000000000000000000000000
1011111111010001000010010000001111100000000000000000000000000000
1011111110111100000100000111001101100000000000000000000000000000
0011111111010100100000000011111000000000000000000000000000000000
1011111111000100101001100000000000100000000000000000000000000000
1011111110100110001001000100000000100000000000000000000000000000
1011111111010111100011000111000100000000000000000000000000000000
1011111111000010110000010101111111000000000000000000000000000000
1011111111011010101011010011010001100000000000000000000000000000
0011111111011111011100000111100100100000000000000000000000000000
0011111110110001101101001001001101000000000000000000000000000000
0011111111101111101011010001111110000000000000000000000000000000
1011111100110000100011110001001010000000000000000000000000000000
1011111111010001101000001100000001000000000000000000000000000000
1011111111100100011101101100111001100000000000000000000000000000
1011111111000101100001010111100111000000000000000000000000000000
0011111111010010011010001011010001000000000000000000000000000000
0011111110100110110111101111111111100000000000000000000000000000
1011111111011001100111101100111100100000000000000000000000000000
1011111111011000101100110101010011000000000000000000000000000000
0011111111010010010011101111111000100000000000000000000000000000
0011111110111101001001101101111000100000000000000000000000000000
0011111111010010000101011110001101000000000000000000000000000000
1011111110111001101111101001000100000000000000000000000000000000
0011111111010000100110100101110001100000000000000000000000000000
0011111110111111110100000000111110000000000000000000000000000000
1011111111000100001110010100100110000000000000000000000000000000
1011111111101001101101000101101101000000000000000000000000000000
0011111111100001010001001111101100000000000000000000000000000000
0011111111100011000011011100110100100000000000000000000000000000
1011111110110100000010100011100000100000000000000000000000000000
1011111111000011101111000101010110100000000000000000000000000000
1011111110110010110010000000100011000000000000000000000000000000
1011111111001011001101000011000110000000000000000000000000000000
1011111111100001011110010011111000000000000000000000000000000000
1011111110101000100110111001101111100000000000000000000000000000
1011111111011100110110000011011001000000000000000000000000000000
0011111111010001100101101101001101000000000000000000000000000000
0011111111000011110100000000011001000000000000000000000000000000
0011111111010001111011101000001110100000000000000000000000000000
1011111111001011000001011100110111000000000000000000000000000000
0011111110110000101011100111110001100000000000000000000000000000
1011111111001101000010111101010011100000000000000000000000000000
1011111111000101101101110101000111000000000000000000000000000000
1011111110100001111110100000100100000000000000000000000000000000
1011111111010100001100000111011000100000000000000000000000000000
0011111110111001110111110101111110100000000000000000000000000000
